// Mem file initialization records.
//
// SW Build 2902540 on Wed May 27 19:54:35 MDT 2020
// Vivado v2020.1 (64-bit)
// Copyright 1986-2020 Xilinx, Inc. All Rights Reserved.
// Created on Tuesday December 07, 2021 - 12:34:04 am, from:
//
//     Map file     - /home/gabri-bot/Vivado_projects/.workspace/myproject_kernel/vivado_rtl_kernel/myproject_kernel_ex/myproject_kernel_ex.srcs/sources_1/bd/myproject_kernel_bd/myproject_kernel_bd.bmm
//     Data file(s) - /home/gabri-bot/Vivado_projects/.workspace/myproject_kernel/vivado_rtl_kernel/myproject_kernel_ex/myproject_kernel_ex.sdk/myproject_kernel_control/Debug/myproject_kernel_control.elf
//
// Address space 'inst_dut_myproject_kernel_bd_i_control_microblaze_0.inst_dut_myproject_kernel_bd_i_control_microblaze_0_local_memory_dlmb_bram_if_cntlr_bram_ADDR_SPACE', bit lane [31:0].
//
// Bus width = 32 bits, number of bus blocks = 1.

@00000000
    B0000001 B8080050 B0000001 B80802F0 B0000001 B80805C4 00000000 00000000
    B0000001 B8080134

@00000014
    B0000001 31A007B8 B0000001 304006B8 B0000001 30201398 B0000000 B9F40018
    80000000 B0000000 B9F400C0 30A30000 B8000000 2021FFD8 F9E10000 B0000001
    20C007B8 B0000001 20E007B8 06463800 BC720014 F8060000 20C60004 06463800
    BC92FFF4 B0000001 20C007B8 B0000001 20E007B8 06463800 BC720014 F8060000
    20C60004 06463800 BC92FFF4 B0000000 B9F4021C 80000000 B0000000 B9F40584
    80000000 20C00000 20E00000 B0000000 B9F40204 20A00000 32630000 B0000000
    B9F40584 80000000 B0000000 B9F401D8 80000000 C9E10000 30730000 B60F0008
    20210028 B8000000 3021FFE0 10C00000 FA61001C F9E10000 B0000000 B9F4002C
    12650000 B0000001 E8A006A8 E8650028 BC03000C 99FC1800 80000000 B000FFFF
    B9F4FF10 10B30000 3021FFC4 FAE10024 B0000001 EAE006A8 F9E10000 FA61001C
    FAC10020 FB010028 FB21002C FB410030 FB610034 FB810038 EAD70048 BE16004C
    13250000 13660000 33000001 EA760004 3273FFFF BE530034 EB560088 BC1B0058
    BE1A001C 30730020 10631800 10631800 C863D000 8863D800 BC03003C 3273FFFF
    A873FFFF BC23FFD8 E9E10000 EA61001C EAC10020 EAE10024 EB010028 EB21002C
    EB410030 EB610034 EB810038 B60F0008 3021003C E8760004 10B39800 10852800
    3063FFFF 10962000 88639800 BE03009C E8E40008 F8040008 BC07FFA4 BE1A007C
    EB960004 E89A0100 A653001F 1100C000 BE120014 11080000 3252FFFF BE32FFFC
    11084000 84882000 BC040050 E87A0104 10A52800 C8A5D000 85081800 BE280054
    10C50000 99FC3800 10B90000 E8760004 8863E000 BE230014 E8970048 8864B000
    BE03FF40 3273FFFF BE04FF40 12C40000 B810FF00 EA760004 99FC3800 80000000
    B810FFD0 E8760004 B810FF70 FA760004 99FC3800 80000000 B810FFB8 E8760004
    98085800 B60F0008 80000000 B60F0008 80000000 3021FFA4 FA610058 12610000
    F8130004 10600000 E8630000 F8730018 E8930018 10600000 A484FFF9 F8830000
    30600010 F8730014 B8000018 E8730014 F8030000 E8730014 30630004 F8730014
    E8930014 30600027 16441801 BCB2FFE0 B0004000 30600000 E8630000 F873001C
    E893001C B0004000 30600000 A0840001 F8830000 10600000 E8630000 F8730020
    E8930020 10600000 A0840004 F8830000 80000000 10600000 E8630000 F8730024
    E8730024 A4630001 BC03FFEC 10600000 E8630000 F8730028 E8930028 10600000
    A484FFF9 F8830000 B0004000 30600000 E8630000 F873002C E893002C B0004000
    30600000 A0840004 F8830000 F8130008 E8730008 BC23000C 30604000 F8730008
    E8730004 30630001 A463000F F8730004 F813000C B8000084 E873000C 10631800
    10631800 B0000001 306306AC E8630000 F873004C E8730008 B0004080 A0630000
    E893000C 4C032400 E873004C E8630000 F8730050 E8730050 E893000C 4C032400
    E873004C 30630004 E8630000 F8730054 E8730054 E893000C 4C032400 E8730004
    A0632000 E893000C 4C032500 E873000C 30630001 F873000C E893000C 30600001
    16441801 BCB2FF74 F8130010 F813000C B8000030 E873000C 4C001A80 28600000
    F8730048 E8930048 E8730010 10641800 F8730010 E873000C 30630001 F873000C
    E893000C 30600001 16441801 BCB2FFC8 E8730010 BC23FFB4 F813000C B8000024
    E873000C 4C601800 F8730040 E8730040 F8730044 E873000C 30630001 F873000C
    E893000C 30600001 16441801 BCB2FFD4 B0004000 30600000 E8630000 F8730030
    E8930030 B0004000 30600000 A484FFFB F8830000 B0004000 30600120 E8630000
    F8730034 E8930034 B0004000 30600120 A0840002 F8830000 10600000 E8630000
    F8730038 E8930038 10600000 A484FFFE F8830000 10600000 E8630000 F873003C
    E893003C 10600000 A0840006 F8830000 B800FDE0 3021FFAC F9E10000 F8210020
    F8610024 F8810028 F8A1002C F8C10030 F8E10034 F9010038 F921003C F9410040
    B0000001 306007AC F9610044 F9810048 95608001 FA21004C E8830000 E8A30004
    FA410050 F961001C 99FC2000 80000000 E9E10000 E961001C E8210020 940BC001
    E8610024 E8810028 E8A1002C E8C10030 E8E10034 E9010038 E921003C E9410040
    E9610044 E9810048 EA21004C EA410050 B62E0000 30210054 B60F0008 80000000
    3021FFF0 D9E00800 3160FFFF 940BC802 31600000 940BC800 C9E00800 B60F0008
    30210010 3021FFF0 D9E00800 C9E00800 B60F0008 30210010 000106BC 00000010
    0000001C

@000001AE
    000106BC 00000000 00000000 00000000 00000000 00000000 00000000 00000000
    00000000 00000000 00000000 00000000 00000000 00000000 00000000 00000000
    00000000 00000000 00000000 00000000 00000000 00000000 00000000 00000000
    00000000 00000000 00000000 00000000 00000000 00000000 00000000 00000000
    00000000 00000000 00000000 00000000 00000000 00000000 00000000 00000000
    00000000 00000000 00000000 00000000 00000000 00000000 00000000 00000000
    00000000 00000000 00000000 00000000 00000000 00000000 00000000 00000000
    00000000 00000000 00000000 00000000 00000000 00010668 00000000
